04
09
06
0E
03
06
0A
0C
03
04
04
07
03
09
0E
04
0A
08
0C
04
04
08
06
03
0B
05
07
07
0D
07
05
06
0C
09
06
05
09
06
07
0B
04
0A
09
0A
07
05
09
07
05
0A
05
07
05
0D
08
05
07
0E
08
04
06
07
08
06
0A
05
0A
0C
05
06
05
09
0A
01
09
05
07
07
0C
09
06
09
0C
08
03
04
08
0A
0B
09
05
08
0A
09
07
04
0B
06
03
09
05
07
09
0A
0A
05
06
0A
07
06
04
05
06
0F
0B
04
07
0A
08
09
05
09
06
05
0A
04
06
07
0E
08
06
0B
0B
07
03
04
03
0C
09
09
04
0A
09
0A
07
05
0B
07
02
09
05
04
07
0D
09
05
0C
0B
09
04
04
0C
08
00
06
04
0A
07
0B
06
04
0B
08
02
09
06
0A
04
0C
08
06
08
07
04
0A
04
0C
06
0C
07
05
09
0A
03
09
04
09
06
09
0A
06
0A
05
0A
07
05
05
0B
03
07
06
09
07
0F
05
05
09
09
0B
05
05
09
09
03
09
06
09
04
0C
09
05
04
0D
04
09
05
0A
09
0A
06
05
07
0B
06
07
05
0B
07
01
07
05
07
07
0B
0A
07
03
0C
06
0A
04
0C
07
04
06
06
07
0A
09
08
05
09
07
03
09
06
07
04
0D
09
07
07
06
0D
09
05
09
09
06
09
05
0A
07
07
06
06
0A
07
01
09
05
05
05
0D
09
07
09
08
0B
08
06
09
0B
07
08
05
0A
07
06
08
06
0C
06
01
09
06
06
05
0E
08
06
07
09
09
08
05
09
0A
00
09
05
0A
09
0A
06
06
0B
05
06
08
07
0B
04
0B
06
05
0A
0A
06
05
06
0C
06
09
07
06
06
0C
01
0A
05
09
09
05
07
07
0A
07
0A
09
07
05
0B
07
07
05
09
08
0C
07
05
05
0A
0D
05
04
09
09
01
09
05
0B
04
0C
06
06
06
0C
06
05
06
04
0A
0E
09
06
05
0C
04
07
04
09
0A
04
09
06
08
07
0D
07
07
05
0A
0D
09
05
05
0A
07
0B
07
08
0B
04
09
04
0B
09
02
09
06
07
07
0E
08
06
05
0B
0A
08
04
09
08
0A
0A
05
09
0B
06
09
05
0C
08
02
07
05
07
05
0F
08
06
06
09
0C
06
06
07
0B
0A
09
07
0A
08
05
09
05
0A
08
01
09
06
09
05
0E
06
06
08
0A
04
05
04
05
0B
05
07
05
09
07
0A
06
06
0B
09
02
08
07
0D
05
0C
04
07
0A
09
06
06
06
0A
04
05
0B
05
06
0C
06
06
04
07
08
07
08
06
0A
05
0D
06
08
06
0B
0B
06
06
0B
07
02
0C
05
07
0B
0D
05
04
09
0A
01
09
07
0B
03
0C
06
07
04
0B
08
0B
05
09
09
0C
07
05
07
0B
0A
04
05
08
0B
03
08
05
0C
03
09
07
06
08
0A
02
0B
04
0C
09
04
06
05
06
0C
05
07
04
09
0A
05
07
07
0B
04
0C
09
08
05
08
06
0A
04
0C
07
03
04
06
08
0B
09
06
04
0B
09
02
09
06
0C
03
0D
06
07
09
0A
05
07
05
05
0B
08
07
05
0A
09
0A
06
06
09
0C
02
0A
05
0C
05
0B
06
06
09
09
08
07
05
03
0C
0C
09
05
08
0A
05
09
05
09
09
04
0A
05
0E
04
0B
04
07
09
08
07
09
06
09
07
06
08
06
03
0D
02
0A
05
08
0A
06
09
06
0C
05
0D
04
07
06
09
08
0A
05
05
0C
03
09
05
04
0B
0D
08
05
09
0A
03
08
06
0B
07
0C
03
07
06
09
03
0B
05
03
0A
0A
0B
06
03
0B
09
09
04
08
0B
09
07
06
0B
06
09
04
08
07
08
08
0B
04
09
09
02
0A
07
07
0C
04
09
05
08
09
05
07
05
07
04
0C
07
07
06
08
0B
0A
05
08
09
04
09
05
08
0B
06
07
05
06
09
07
06
07
09
05
0D
07
06
06
09
03
0A
05
08
0A
05
09
05
07
09
0A
0A
04
07
09
07
06
06
09
07
0D
06
06
06
08
0D
07
06
09
07
04
09
04
08
08
07
0A
05
08
08
03
09
06
0C
09
05
06
07
03
0B
0E
09
06
0E
03
05
08
05
03
0D
02
0C
05
09
0A
08
04
05
0C
08
0C
04
08
03
0A
0D
09
06
03
06
0F
0C
05
02
0B
09
0A
06
07
0B
0D
06
06
0C
06
0F
02
07
07
07
0B
09
07
06
07
0C
0C
05
01
0B
0C
0A
05
09
0A
04
09
06
0B
07
0E
04
07
06
08
0E
08
05
0C
04
02
0B
05
04
0A
05
0A
06
0A
0A
03
06
06
09
07
0F
03
07
06
08
0D
09
05
0A
06
09
0A
04
06
0B
04
09
06
09
09
05
06
07
0A
07
0C
05
08
06
0A
0C
09
05
09
04
0B
09
05
04
09
0B
0A
05
07
0B
01
06
06
09
07
0F
05
08
08
09
0A
06
05
09
07
03
0C
04
09
08
05
0B
04
06
0C
05
06
06
0A
03
0F
04
06
07
0D
0A
03
07
07
0A
00
09
05
07
0D
06
09
03
07
0B
03
03
05
08
06
0D
05
08
06
0D
04
04
06
07
08
0D
07
06
05
0A
09
0A
03
06
0C
01
09
05
0C
08
0B
04
07
08
0C
01
06
05
04
09
09
09
04
08
07
0C
04
05
09
0B
01
07
06
08
0A
06
07
07
0B
0A
02
05
07
09
08
05
08
05
09
0D
01
0A
04
0A
0A
01
09
05
0A
06
0A
06
06
09
09
0B
06
06
06
0B
06
07
04
05
09
08
0B
04
06
0C
02
09
06
0A
07
09
04
07
09
08
0D
05
06
04
09
0E
0A
05
04
0B
06
09
03
08
0A
01
0A
06
07
07
0E
04
07
07
0A
07
06
06
06
0A
02
0B
06
08
09
03
0B
03
0A
0B
05
06
