04
0B
05
0B
0B
09
02
0E
0C
00
08
06
07
0C
06
06
06
09
07
0C
06
05
04
0E
0A
03
0B
06
05
0C
07
01
0C
0C
05
07
07
0A
0A
09
07
07
0B
0B
09
05
03
05
0C
06
05
0C
07
06
09
07
02
0C
09
09
07
08
0A
0B
06
08
06
08
0A
0B
05
07
07
0D
07
04
0B
04
08
0A
06
04
0A
0A
0A
09
08
09
0A
06
09
09
07
07
0C
04
07
04
0C
03
05
0A
06
07
0C
07
04
0A
08
0C
06
09
06
08
0B
07
07
08
06
0B
06
06
07
0B
07
03
0C
05
07
0C
09
05
0B
0B
08
08
09
08
07
05
08
0A
09
09
09
04
09
06
09
0B
03
0B
04
07
0E
06
07
0A
0B
0A
06
08
0B
08
03
09
07
0B
07
00
04
06
05
0C
0B
05
0A
08
06
0B
0A
03
0D
09
00
07
08
08
0B
09
09
0B
09
07
0B
05
0A
08
0B
06
04
09
0A
03
0D
07
03
0B
0B
01
09
0B
0B
09
07
07
0A
08
06
0C
04
06
0A
08
0B
05
0C
07
06
07
0A
02
0C
0B
07
07
09
09
0A
08
06
0A
06
06
0A
04
08
07
09
07
05
0C
04
07
0A
07
04
0C
09
09
06
0A
0A
0B
07
09
0B
0A
08
0B
07
09
08
0B
05
04
0B
06
09
0A
08
08
08
06
0B
09
09
08
09
04
07
09
08
06
0B
07
08
0A
0A
04
04
0B
07
07
08
08
07
0A
0A
07
07
0B
07
0A
05
06
0B
08
09
09
07
0A
09
09
07
04
0B
01
0A
0B
06
0B
08
05
08
06
07
06
0C
05
07
09
08
0A
05
05
05
07
0D
0B
04
08
07
08
06
09
04
0D
08
01
07
0C
05
09
0A
06
08
06
09
08
04
08
05
09
0A
06
02
07
04
0F
08
06
0B
0A
00
09
0A
09
09
08
07
0A
07
09
07
06
05
07
0B
0B
04
08
05
05
0C
08
07
0B
08
00
06
0B
09
0A
06
06
09
09
09
07
04
07
07
0B
09
05
07
05
04
0C
07
0A
09
07
06
06
0B
06
0A
05
07
0A
09
09
07
06
07
06
0B
0A
04
07
06
06
0A
06
0C
08
0A
05
08
0A
0A
0B
05
08
07
09
0B
0B
07
05
0A
09
08
03
09
09
05
0C
0A
0C
09
0A
06
06
0A
08
0B
0C
07
07
08
08
0A
05
06
07
0B
06
04
06
03
09
0C
09
09
08
07
08
08
0D
06
0A
0A
08
0B
08
09
04
06
07
05
0A
07
03
0D
01
0B
09
09
06
0D
06
04
07
0B
08
0A
09
06
09
09
06
0A
06
0B
08
0A
0B
04
00
03
09
0F
0A
0C
0A
09
03
07
0B
0A
09
08
08
06
09
07
0B
04
08
0A
08
0C
04
07
06
06
0B
08
09
0A
08
03
06
0B
08
09
06
09
09
0A
07
08
06
09
08
09
07
06
09
01
07
0D
09
04
0B
08
0A
06
0B
07
09
05
09
08
0A
07
08
07
06
0B
09
0B
04
05
03
06
0E
07
08
0C
04
04
06
0B
08
09
06
09
08
0A
07
09
06
09
0B
0A
08
05
05
03
09
0B
0A
0B
0C
07
03
09
0A
0A
09
07
07
08
08
07
08
05
08
09
0A
06
05
0B
01
06
0E
07
05
0D
06
09
09
0C
08
08
05
07
0D
09
07
09
07
06
06
08
0A
05
0E
02
06
08
07
04
0E
05
05
06
06
0A
09
08
06
0D
07
07
06
04
07
0D
04
05
06
05
06
01
0F
08
07
0C
06
03
08
07
09
07
09
07
09
08
08
09
07
04
0B
05
0C
06
0B
05
02
0D
07
06
0C
04
08
07
08
0B
0A
0B
07
09
0A
09
0A
07
05
09
08
0D
04
0B
08
01
0B
0A
03
0B
06
05
07
07
0A
0B
06
09
0A
0A
07
0A
06
04
08
0A
0B
06
07
0B
01
0C
07
05
0B
07
05
06
08
08
09
08
08
08
08
08
0A
04
06
08
0A
07
06
00
06
05
0E
09
0B
0C
06
03
07
08
0A
09
07
06
08
08
08
0B
07
08
06
09
0A
04
04
05
08
0C
06
05
0D
03
0B
08
0A
08
08
09
07
0B
09
09
08
06
06
07
0B
09
02
04
0C
04
0A
07
06
0C
04
0A
08
07
09
08
08
08
07
09
0B
06
06
08
0B
09
05
04
03
0D
07
0B
09
05
0C
0B
08
08
07
09
09
09
09
06
08
09
07
06
0B
06
07
0B
03
04
0B
07
0C
09
08
0C
09
05
07
07
07
08
0B
06
05
0B
09
08
07
09
06
08
0A
06
02
0A
06
0E
0A
07
0C
09
04
06
08
09
09
0A
08
07
0B
09
09
04
08
09
06
09
03
04
06
07
0E
09
05
0C
09
04
07
08
08
08
0D
08
0A
0A
0A
08
06
09
08
08
06
05
02
05
03
0F
08
04
0C
05
04
06
08
09
08
09
09
09
0A
09
09
04
0B
08
07
0B
03
0C
02
08
0D
09
03
0D
04
0A
07
0A
0A
07
09
09
08
0B
09
07
04
09
08
07
0C
02
0B
03
09
0E
06
06
0A
0B
0B
06
05
0E
08
02
07
08
0A
06
05
06
06
0B
05
08
02
0A
09
06
0D
07
09
0B
09
0B
06
08
08
0A
05
06
07
0A
09
0A
06
09
08
0A
0C
03
0B
09
06
07
08
0C
09
09
05
07
09
0A
06
07
06
09
08
08
08
06
0B
08
09
0B
04
0B
09
05
06
07
0A
0A
0A
04
09
0B
0B
07
05
06
09
08
07
05
04
07
0B
06
06
03
0A
05
08
0B
09
09
07
06
0B
07
08
09
08
02
06
08
08
0A
05
06
09
0A
06
03
03
06
0C
04
0B
06
07
0A
07
0B
08
09
09
08
03
07
06
08
08
09
05
07
0A
06
04
04
0C
09
05
04
06
07
0B
06
08
06
04
0D
0A
08
08
07
09
07
09
05
06
09
0B
0B
