0A
07
02
0B
08
05
08
06
0A
0B
0A
06
05
0A
07
05
07
07
0B
09
02
02
05
09
07
0C
0C
04
07
04
09
0B
07
0C
0B
07
0A
04
09
02
08
09
0A
05
05
0A
0B
07
05
03
07
0A
0B
0A
0C
09
09
08
0A
08
0B
09
07
05
03
0B
08
08
06
0B
0B
04
08
06
0C
0A
0B
08
09
09
08
05
04
0A
0A
0A
08
06
09
05
0A
07
09
06
0B
0B
06
0B
06
0A
05
09
09
09
09
05
06
08
08
08
0A
07
09
08
08
0D
0A
07
06
0C
08
09
08
0C
0A
02
08
00
05
09
0B
0C
09
08
0C
04
07
00
05
0A
07
03
00
07
03
08
06
04
04
09
08
09
08
07
02
07
08
0A
09
09
09
08
09
08
08
0B
08
08
08
07
0B
09
0A
09
09
05
06
02
01
08
09
08
07
07
05
06
0B
0B
07
06
0B
0A
07
0A
07
09
0A
0B
0D
0B
06
0B
0B
05
0A
0C
09
04
07
0C
0B
08
07
07
08
07
09
06
07
06
06
08
09
09
0C
0D
07
05
09
09
07
09
0B
08
08
08
09
09
08
0D
0B
07
0A
07
0D
09
08
05
06
03
0A
09
08
08
00
09
0A
09
09
07
08
0A
07
08
05
09
0A
08
09
06
0B
08
07
09
09
05
01
01
06
07
04
05
06
06
02
0B
06
03
04
03
0B
0B
06
09
02
0C
0B
06
0A
09
