0A
09
09
09
09
0B
0A
0A
0A
09
09
09
06
08
07
05
04
07
07
07
0A
09
07
09
08
03
03
04
09
03
03
04
03
04
02
03
04
05
05
01
05
04
05
04
03
05
03
06
08
07
03
08
09
09
08
08
05
05
05
07
09
07
05
04
03
09
06
05
03
02
0A
08
09
08
02
05
06
04
08
06
0A
08
08
05
06
08
08
06
08
0A
07
05
08
09
0B
0B
0A
06
08
05
0A
0A
0B
0B
0D
0B
08
08
09
0B
0A
09
09
09
0A
0B
09
09
0A
0A
09
08
09
08
0A
04
06
08
08
07
05
06
07
08
03
04
09
06
08
04
08
08
06
07
03
0B
09
07
06
07
