02
0A
06
09
04
03
05
05
09
0B
09
07
06
04
00
09
07
0A
09
05
05
09
09
09
09
05
09
06
07
07
07
08
0A
08
05
03
06
07
07
06
06
08
06
06
03
05
0A
07
08
09
01
05
06
08
06
06
08
05
09
02
04
08
09
0A
03
09
08
06
0A
04
0A
0B
0A
09
05
0B
04
07
07
0A
07
0A
0A
08
05
0A
08
0C
05
0B
0A
07
09
07
0A
0B
09
09
0B
0A
03
05
07
03
04
09
07
0A
03
09
0A
0A
07
05
0A
0D
0A
0A
07
09
0A
09
09
07
0B
07
0B
09
09
09
01
05
0B
07
08
00
07
05
09
09
02
09
06
09
09
05
06
07
06
07
