0D
0D
0A
0A
06
0E
0B
07
0A
08
0B
0A
07
0C
07
0A
0B
0B
0B
0D
0C
0A
0A
0A
0D
02
03
0B
0D
0F
04
04
0B
07
0E
06
0B
08
0A
0A
07
07
09
07
09
04
05
06
07
09
03
03
0D
08
0D
08
07
05
03
05
0A
08
09
0A
06
09
0D
0C
0C
09
0A
08
0C
0B
0A
0B
0E
0A
0C
03
0A
0C
0D
0F
0A
0B
0B
0A
09
0A
08
05
05
06
07
0A
0A
07
0B
07
0D
07
0B
0D
0E
0B
0A
0A
0C
0E
06
0C
0A
0B
07
0B
07
05
0B
0F
08
0A
04
05
05
03
04
06
05
05
03
04
04
0A
0B
06
06
0A
0A
0E
09
0D
0C
0A
0D
0E
0D
0D
0E
0F
0A
0E
0A
0B
0B
09
09
0A
0C
0A
0C
0A
08
0B
0E
0E
0D
0B
0A
0C
0F
0F
0D
0C
07
0B
0A
07
09
05
08
09
09
07
05
08
08
09
07
07
08
0B
0B
0A
0B
0F
0E
0E
0C
0D
0A
08
07
09
0B
0A
0C
0A
0D
0B
05
08
09
0C
0A
07
08
0A
0B
08
06
09
0A
0B
07
0A
0E
0C
0C
0A
05
0F
0C
0F
0D
01
07
07
0B
0A
01
06
04
08
00
05
09
08
06
03
08
0A
0C
0A
06
09
06
0B
0C
09
0A
0A
0A
0A
0E
0D
0A
0B
0D
0D
0B
0D
0B
0D
0E
0F
0D
0D
0B
0C
0C
09
08
0A
0C
0E
07
07
0A
0E
0F
09
07
0C
0E
0F
0F
0F
0E
0F
